{"version":"1.0","truncation":null,"padding":null,"added_tokens":[{"id":0,"content":"<pad>","single_word":false,"lstrip":false,"rstrip":false,"normalized":false,"special":true},{"id":1,"content":"<s>","single_word":false,"lstrip":false,"rstrip":false,"normalized":false,"special":true},{"id":2,"content":"</s>","single_word":false,"lstrip":false,"rstrip":false,"normalized":false,"special":true},{"id":3,"content":"<unk>","single_word":false,"lstrip":false,"rstrip":false,"normalized":false,"special":true}],"normalizer":{"type":"NFC"},"pre_tokenizer":{"type":"Metaspace","replacement":"▁","prepend_scheme":"always","split":true},"post_processor":{"type":"TemplateProcessing","single":[{"SpecialToken":{"id":"<s>","type_id":0}},{"Sequence":{"id":"A","type_id":0}},{"SpecialToken":{"id":"</s>","type_id":0}}],"pair":[{"SpecialToken":{"id":"<s>","type_id":0}},{"Sequence":{"id":"A","type_id":0}},{"SpecialToken":{"id":"</s>","type_id":0}},{"Sequence":{"id":"B","type_id":0}},{"SpecialToken":{"id":"</s>","type_id":0}}],"special_tokens":{"</s>":{"id":"</s>","ids":[2],"tokens":["</s>"]},"<s>":{"id":"<s>","ids":[1],"tokens":["<s>"]}}},"decoder":null,"model":{"type":"Unigram","unk_id":3,"vocab":[["<pad>",0.0],["<s>",0.0],["</s>",0.0],["<unk>",0.0],["▁",-2.274233580408378],["\n",-2.8091634478516703],["R",-2.874203929447372],["E",-2.884735532414627],["T",-3.3917082271284578],["D",-3.467373327939283],["I",-3.5168670470053573],["A",-3.726327372121977],["U",-3.825569483590616],["Q",-3.825572099841052],["G",-3.8266428336392977],["Y",-3.8266428354031703],["0",-4.014129375693134],["O",-4.042603220443469],["F",-4.043528804672693],["a",-4.055193235639475],["e",-4.177096165914149],["1",-4.349428175758089],["PE",-4.353420222380398],["▁1\n",-4.3809679132875665],["IN",-4.396831636734618],["S",-4.401285593307165],["C",-4.402237634312309],["s",-4.457642115322749],["t",-4.625029049104693],["OOL",-4.667127418819458],["▁TEXT",-4.673078669568188],["▁arg_0",-4.693525699432419],["▁arg_1\n",-4.698761338589284],["RE",-4.716482568732413],["P",-4.718329191200969],["d",-4.771771857516087],["n",-4.800094782650934],["the",-4.817943908555625],["o",-4.866723210286854],["ENUM",-4.878428206335525],["N",-4.918239430197744],["l",-4.984201365994172],["r",-5.0053409635061765],["▁to",-5.011653044096292],["2",-5.148736538966407],["w",-5.247311387833306],["▁0\n",-5.25057169699813],["▁what",-5.48257473466657],["▁of",-5.489284954689943],["h",-5.491882401787223],["▁wh",-5.57157118046179],["▁it",-5.734890288172762],["i",-5.742721382127949],["k",-5.7558562454292455],["▁crea",-5.795372612876183],["▁event\n",-5.799539440583369],["▁arg_2\n",-5.830065189047995],["M",-5.85789605603741],["▁reminde",-5.884517181773864],["▁INTEGER",-5.886589164906882],["▁for",-5.930338519208145],["▁off",-5.9741110754485325],["▁place",-6.037278076720765],["ead",-6.0529282345447415],["▁DURATION\n",-6.058763005661884],["▁timer\n",-6.060451483092037],["igh",-6.080173307019561],["▁ho",-6.09682515112846],["▁on",-6.120752377453014],["g",-6.192724992122967],["3",-6.229951303894331],["me",-6.277751183328203],["▁ENUM",-6.336025620894604],["▁timer",-6.364927982218131],["▁DURATION",-6.377742474662058],["▁event",-6.385277860085374],["enda",-6.390317096704024],["her",-6.402573424406042],["y",-6.407104084508738],["▁cal",-6.414306623926549],["▁title\n",-6.441058185203896],["▁length",-6.448276550721389],["▁DATETIME",-6.448871313172207],["emai",-6.452339407257696],["tas",-6.453003584643429],["ich",-6.479698697790131],["▁un",-6.497205467168233],["orm",-6.548264083727785],["▁low",-6.558959442784575],["▁rec",-6.558978128897697],["▁about",-6.5650461227115295],["▁repeat",-6.56752298222291],["▁tod",-6.5677312236773195],["▁DATE",-6.570674122239159],["▁lo",-6.5853520486080965],["age",-6.586427265466204],["▁be",-6.608318473172363],["▁BOOLEAN",-6.613832380805673],["run",-6.621332453134089],["▁cou",-6.646965807676481],["itch",-6.6543826113441735],["mes",-6.656449964531618],["up",-6.670692993845282],["▁an",-6.673871907776476],["▁do",-6.684420487471934],["▁days",-6.685746788724153],["end",-6.687886969405807],["▁start",-6.693181237629793],["ist",-6.697498280321181],["▁room\n",-6.698786177009732],["lin",-6.701366228307932],["▁LOCATION",-6.722412840490921],["▁che",-6.733587135601186],["▁so",-6.748043365172002],["c",-6.748148835611748],["ck",-6.753214027063919],["m",-6.755171576845047],["man",-6.776725756162414],["▁is",-6.8068272071016525],["lon",-6.836803133993064],["dy",-6.838375202483027],["▁1",-6.920043128823965],["iv",-6.922888434941286],["bo",-7.000472655497597],["▁eine",-7.024457000050853],["f",-7.027135730484641],["▁de",-7.094942354264315],["▁0",-7.148846373625861],[":",-7.151683611655365],["ow",-7.165417470182695],["te",-7.2142811786464645],["▁a",-7.243671267563861],["▁2",-7.244304241685087],["▁or",-7.2635009875413985],["eat",-7.269315946282683],["es",-7.274606451940478],["▁na",-7.2849030816359],["u",-7.2965588781116315],["z",-7.339378607777708],["▁la",-7.355971652921564],["▁we",-7.369375142078122],["b",-7.371748058594009],["lig",-7.384434987095207],["al",-7.394706372482738],["ad",-7.419758090395991],["AN",-7.468926860540646],["▁th",-7.483118644212445],["p",-7.54689536901529],["ec",-7.560861282651829],["é",-7.638844943127284],["▁3",-7.640216235795494],["st",-7.686616791433404],["it",-7.694039869462713],["stell",-7.731320543395925],["▁plan",-7.823511755181461],["e-m",-7.899429573918963],["ve",-7.9317301616372795],["▁sch",-7.946202169298819],["nt",-7.961531934160063],["do",-7.99408991621846],["▁env",-8.00102957689137],["on",-8.013491059026268],["-",-8.03856471497685],["▁anna",-8.082275130015127],["che",-8.085457647921007],["as",-8.087667001247517],["sen",-8.091487297525056],["or",-8.094142985756891],["ine",-8.094744563695365],["ä",-8.105382883970835],["2\n",-8.119388326472968],["in",-8.12209598964785],["▁me",-8.122928857500296],["▁l",-8.135574089294078],["ur",-8.146844264744786],["▁co",-8.180040894483344],["▁minute",-8.184230968341272],["à",-8.185827570253398],["ía",-8.202596269750588],["▁qu",-8.204559256660039],["▁in",-8.229309288205563],["▁bu",-8.274313095446939],["v",-8.27666634222959],["lum",-8.301335806497649],["aña",-8.338827762802964],["▁da",-8.342205635942545],["?",-8.34434909318431],["1\n",-8.359542447321141],["▁auf",-8.360232532285387],["▁le",-8.373738571805902],["tter",-8.374787585770239],["ó",-8.381853000044753],["▁pro",-8.383507611628266],["schick",-8.420944774653144],["▁die",-8.430129815052851],["▁se",-8.43757221532924],["▁dentist",-8.44980522121113],["▁li",-8.452342697930733],["▁temporizador",-8.464196390320463],["'",-8.46885564593967],["9",-8.483280644128977],["è",-8.4893372935041],["▁wie",-8.491829805026468],["▁s",-8.509846877183186],["is",-8.543835135055229],["ng",-8.54634467568493],["za",-8.558155732150961],["NT",-8.563406233451444],["minutes",-8.57771076680569],["er",-8.580576818164616],["to",-8.598310668386006],["▁tom",-8.620090880212903],["▁plant",-8.62103302914493],["▁ma",-8.625017600696282],["▁pres",-8.625104275886496],["TI",-8.631692675184274],["▁ein",-8.645964117353898],["un",-8.651024765615396],["ür",-8.655269196589467],["quip",-8.675932417561077],["en",-8.68825896664185],["une",-8.710395488143448],["▁lu",-8.73208324538351],["▁rapp",-8.744136937229106],["ller",-8.749685793081424],["▁prepar",-8.761877098808435],["▁dan",-8.764496244532449],["gra",-8.775608790127212],["▁po",-8.791640711403183],["rende",-8.792019745945728],["▁au",-8.792220205354452],["▁mü",-8.796531051269879],["gabe",-8.807540518291503],["ré",-8.80891566671949],["re",-8.819267954973522],["arg_1\n",-8.833189577991053],["▁wi",-8.837707235619375],["arg_0",-8.856369577087667],["TEXT",-8.876921019046797],["ord",-8.879058414053201],["▁d",-8.880609164961847],["▁den",-8.888183157489692],["he",-8.888499491335486],["eri",-8.891667716009719],["▁hace",-8.89833771845743],["current",-8.939507651708862],["iz",-8.94571347424941],["jou",-8.945927273319652],[",",-8.949448157813073],["á",-8.949448157813073],["â",-8.949448157813077],["empo",-8.950769262053013],["mit",-8.951959653873278],["▁pass",-8.96323036956911],["▁temp",-8.963248488015314],["dia",-8.968290540966967],["ü",-8.975998917245972],["il",-8.979990523915703],["▁stunde",-8.986952105181125],["▁re",-8.991526129753243],["▁mor",-9.002587958378214],["▁tar",-9.006131948386457],["auf",-9.017001238770327],["▁minut",-9.019155962902389],["ber",-9.036452418937742],["▁com",-9.041995246001331],["alt",-9.054543385226532],["ext",-9.07052603919763],["▁priorit",-9.072013502159932],["▁p",-9.084817524057819],["ca",-9.090677719730754],["ram",-9.107997599402184],["▁ver",-9.11262354291538],["▁ber",-9.118200295912379],["▁hour",-9.12616698585201],["ge",-9.127747897974995],["▁próximo",-9.13549981709138],["▁tomorrow",-9.135756925979782],["▁par",-9.143494554664839],["▁w",-9.158018835246143],["an",-9.168733629226795],["5",-9.171489001687116],["para",-9.17304039580295],["▁ré",-9.182237433533468],["ch",-9.184649085656266],["-t",-9.189366097317691],["for",-9.195102205669649],["gar",-9.199035569125012],["▁team",-9.21286636975479],["▁di",-9.214523538736406],["▁prochain",-9.21901158759599],["halb",-9.249976894400772],["▁proje",-9.264825660672303],["s\n",-9.269573610239902],["enta",-9.276292952588964],["pare",-9.279977529202142],["min",-9.290956072557869],["▁dem",-9.300463174135855],["na",-9.31759989831125],["rre",-9.31977316505432],["uni",-9.332520660131376],["est",-9.335772389966438],["▁cit",-9.340393054380922],["▁trimestr",-9.342021820273422],["0\n",-9.347032820711174],["de",-9.353101496498482],["rio",-9.354851004369966],["▁sal",-9.361351593981798],["▁dura",-9.363542450007968],["uj",-9.372868886015807],["ser",-9.379196550759028],["▁heu",-9.392869219686379],["por",-9.39376428464196],["hamb",-9.395871172020591],["du",-9.404322781985769],["ci",-9.408771455292534],["▁revi",-9.427698755385041],["der",-9.429110464050494],["ori",-9.445823480897573],["y\n",-9.452822889604967],["el",-9.458638136409682],["▁hal",-9.495519069465894],["▁priori",-9.495774641559494],["eb",-9.512173877198547],["rro",-9.515973320946786],["ma",-9.521852183315206],["▁priority",-9.524334530691398],["jour",-9.527307983834906],["▁due",-9.538010014216994],["▁all",-9.53921871556632],["ger",-9.54340857650217],["▁ven",-9.54426462387006],["ende",-9.546357637320469],["▁h",-9.553307436491536],["am",-9.560843337555376],["▁ha",-9.561749176164215],["rse",-9.564174220629523],["ein",-9.581773559605281],["tin",-9.58623871831563],["wit",-9.586554619456463],[".",-9.587882540055332],["ß",-9.587882540055332],["qu",-9.597869890601885],["rec",-9.608883567831814],["tag",-9.614172216975156],["ste",-9.615200925692987],["dri",-9.633631660400845],["pr",-9.634028433700273],["▁report",-9.64507783253326],["merci",-9.650246854410987],["▁ap",-9.657750089154032],["cor",-9.664442889827246],["and",-9.668197383017358],["po",-9.67376141096659],["x",-9.676011892138693],["▁t",-9.679644669748393],["day",-9.684104765509163],["be",-9.690165435318745],["om",-9.691047918376452],["d'",-9.692857245791181],["what",-9.700970808325382],["our",-9.705242245268805],["nte",-9.708543928589581],["▁mach",-9.737923297552552],["▁l'",-9.739807109262076],["appo",-9.771615774907138],["roc",-9.778331063978984],["▁ti",-9.782044702898483],["lan",-9.784588153784638],["ill",-9.804381574602708],["▁rev",-9.814451633886922],["ho",-9.826907451371978],["¿",-9.82706597294586],["mmer",-9.827782154982371],["▁quart",-9.839768844287663],["aga",-9.841752194075005],["ter",-9.857606410032227],["▁arg_1",-9.857990420939366],["▁pr",-9.86808493431067],["▁en",-9.886921056494366],["le",-9.89118784538147],["of",-9.89963885997762],["int",-9.906031908220873],["í",-9.906435021472173],["▁mon",-9.908272145661428],["port",-9.914744848616282],["ei",-9.92015863731868],["abe",-9.92220466356333],["arc",-9.923987780226334],["la",-9.93141625881272],["vie",-9.94219761855236],["event\n",-9.956466959154218],["▁ge",-9.962551795819982],["▁fr",-9.96840677657019],["li",-9.98482810637033],["wh",-9.985103405190936],["arg_2\n",-9.987910989480628],["edi",-9.993910514003247],["▁ren",-9.998852457839597],["ung",-9.99901055175946],["ent",-10.001931183330198],["▁lun",-10.009754847167319],["▁T",-10.021788773413466],["reminde",-10.022927335002606],["crea",-10.023521178200077],["INTEGER",-10.025071664125889],["out",-10.05455642066482],["ht",-10.07953828033523],["tool",-10.102693156351949],["▁comm",-10.106732778637872],["ern",-10.113260988666177],["dem",-10.121439742058268],["eur",-10.129846751469701],["team",-10.135948284327366],["▁er",-10.139141257696659],["ö",-10.142040296008455],["ar",-10.155456453778712],["ration",-10.165375638365965],["rida",-10.170401386544098],["room",-10.174402355731345],["DURATION\n",-10.17479066316009],["ie",-10.175536649689263],["rid",-10.186977777312611],["ient",-10.197487499818232],["▁du",-10.218786793638143],["▁no",-10.223681982386296],["timer\n",-10.227589781369335],["place",-10.232621014864128],["th",-10.253884466640365],["off",-10.276917356623484],["/",-10.302296706265011],["heu",-10.308365683270544],["trie",-10.316357816126983],["et",-10.333209696988112],["cia",-10.354846158607412],["ze",-10.362754449139453],["ect",-10.399505564758222],["▁al",-10.40869650623082],["▁ba",-10.42149080479382],["▁su",-10.452279636660228],["este",-10.46095762177253],["evi",-10.4879267797346],["DURATION",-10.52249649585189],["im",-10.553250196955899],["▁cr",-10.560078928430919],["▁ta",-10.563593378516035],["timer",-10.577308590551278],["ute",-10.597864501132243],["DATETIME",-10.598209175026737],["event",-10.599177500922746],["je",-10.614771980989499],["title\n",-10.628672120123657],["length",-10.636351592996453],["ah",-10.637664562288688],["-m",-10.643812946878576],["▁even",-10.655825533762295],["erl",-10.667969390675568],["lo",-10.687823787270446],["▁wa",-10.688648419739536],["aci",-10.69552552534348],["aj",-10.710858936379255],["fi",-10.716713151613398],["_",-10.729316903454853],["example.com",-10.729316908297834],["15:00",-10.729348804437514],["▁2026-08-19",-10.739661707387768],["cal",-10.743771654296332],[":00",-10.74453447376662],["▁room",-10.751792614779934],["▁f",-10.759524442196515],["▁i",-10.760380857385119],["repeat",-10.76403405821377],["ject",-10.78769412444885],["BOOLEAN",-10.791617906668497],["about",-10.79173093998287],["at",-10.79565893137526],["▁n",-10.803647196196412],["▁b",-10.80376368855462],["so",-10.808506052179036],["nz",-10.822156153928326],["▁m",-10.827014027710419],["NUM",-10.836683342783264],["DATE",-10.841932244344674],["nd",-10.85532871583592],["LOCATION",-10.891948210343774],["low",-10.899759987558287],["tod",-10.910580338456768],["start",-10.930453170063705],["room\n",-10.937241586876421],["ale",-10.93750382053169],["days",-10.966928443278622],["▁mi",-10.986229906573442],["da",-10.990919631887445],["cou",-10.996253764000166],["tel",-11.0499484433122],["ou",-11.088903427405397],["cu",-11.094232135440505],["j",-11.096844480813687],["ea",-11.1497128340732],["▁c",-11.154543543365277],["atin",-11.171422149181222],["ort",-11.261850150954059],["ach",-11.275404094435734],["urrent",-11.342449608078448],["eine",-11.344176977348045],["ona",-11.34502800384962],["▁wo",-11.389347402734906],["L",-11.40626130213614],["▁arg_",-11.43625325326037],["rea",-11.439709842338448],["l\n",-11.443737669899939],["vo",-11.464628618587527],["ank",-11.473924985140691],["@",-11.488840717861605],["+",-11.488840717861605],["se",-11.490527085498512],["di",-11.496181452622833],["ly",-11.504827707614334],["ic",-11.507533554485763],["ss",-11.51304863089965],["▁15",-11.528973565381936],["ies",-11.536808692476278],["ne",-11.595283548859738],["ai",-11.614344671151581],["ours",-11.677452734376383],["ra",-11.79112775864342],["e\n",-11.827569463085382],["▁sta",-11.851495246133206],["lle",-11.91722829504162],["ass",-11.933226998453993],["bes",-11.935518250472734],["ag",-11.961448370238084],["isi",-11.981619957340987],["▁o",-11.996500852352534],["19",-12.007235228033723],["mi",-12.028284310447084],["we",-12.049385235498548],["mai",-12.178112884946579],["par",-12.185175836828991],["orr",-12.2207779445681],["od",-12.226557497752088],["▁es",-12.239559370067765],["minute",-12.297393352547099],["rd",-12.298634680685291],["sch",-12.317195234479968],["plan",-12.317412093168182],["ti",-12.348190362903448],["vi",-12.35969803621076],["ate",-12.360669150321934],["ui",-12.369474005778597],["oi",-12.4976674948602],["ap",-12.54144720435145],["co",-12.579669518923538],["bu",-12.631387964411521],["env",-12.648066154011968],["▁gr",-12.656348642820053],["ri",-12.659578815989255],["fo",-12.668699651644683],["anna",-12.668981838577583],["rie",-12.70831778814379],["vent",-12.719732315105512],["erci",-12.80068264856063],["ta",-12.831652173033458],["ied",-12.862740507792115],["ue",-12.863541034452208],["dan",-12.898360499398068],["os",-12.918469544919912],["▁tha",-12.959121704859252],["oo",-12.975437279715619],["t\n",-13.021394916845646],["temporizador",-13.027593597470341],["dentist",-13.09083330437852],["mor",-13.11571993189251],["tar",-13.154250665914187],["ll",-13.184057411057854],["ke",-13.222555264325637],["pro",-13.248535530757534],["gh",-13.264571393592071],["dor",-13.265220579930386],["ven",-13.273144119967013],["cer",-13.312033288605718],["au",-13.32028267240263],["die",-13.3448035614485],["OL",-13.389495741973676],["id",-13.401331820881069],["wi",-13.406112645786548],["rn",-13.408455958205158],["ain",-13.438129468835834],["pi",-13.440647807920836],["rm",-13.444301534907618],["wie",-13.446013236169975],["plant",-13.446961356171029],["um",-13.473271910911407],["com",-13.511999057970115],["rk",-13.518748233337579],["nda",-13.530815153608563],["lu",-13.540351060410464],["pres",-13.556582989087117],["▁u",-13.588769213639674],["ity\n",-13.597487757855468],["tu",-13.627391744955254],["▁te",-13.656565479185378],["tom",-13.675954929554475],["prepar",-13.680083851761328],["hal",-13.738802721304817],["den",-13.758349096951205],["ion",-13.779338928493086],["rmi",-13.779917713081336],["rapp",-13.786644669170878],["minut",-13.78992725355376],["hic",-13.809180361559989],["ce",-13.954394648486032],["▁ar",-14.017768792559147],["▁ch",-14.056023007120123],["si",-14.084948201074315],["hace",-14.113382598389693],["▁z",-14.126952188575686],["ha",-14.127428734767992],["stunde",-14.153936872215365],["▁e",-14.215876548959862],["pass",-14.261418624407625],["temp",-14.262206162153467],["ir",-14.268033455978486],["all",-14.279983538119087],["sa",-14.300625064467445],["priorit",-14.308871342395692],["mü",-14.313386313979674],["tomorrow",-14.42098815001377],["dr",-14.42843044510898],["pre",-14.44755719750476],["próximo",-14.459724298315095],["rde",-14.506424446290083],["ña",-14.550058222637052],["ed",-14.625046102136361],["prochain",-14.634929251280179],["q",-14.690573947578194],["X",-14.690673947578194],["ñ",-14.690773947578196],["B",-14.690873947578195],["6",-14.690973947578195],["8",-14.691073947578195],["hour",-14.691073947578195]],"byte_fallback":false}}