{"version":"1.0","truncation":null,"padding":null,"added_tokens":[{"id":0,"content":"<pad>","single_word":false,"lstrip":false,"rstrip":false,"normalized":false,"special":true},{"id":1,"content":"<s>","single_word":false,"lstrip":false,"rstrip":false,"normalized":false,"special":true},{"id":2,"content":"</s>","single_word":false,"lstrip":false,"rstrip":false,"normalized":false,"special":true},{"id":3,"content":"<unk>","single_word":false,"lstrip":false,"rstrip":false,"normalized":false,"special":true}],"normalizer":{"type":"Sequence","normalizers":[{"type":"NFC"},{"type":"Lowercase"}]},"pre_tokenizer":{"type":"Sequence","pretokenizers":[{"type":"Metaspace","replacement":"▁","prepend_scheme":"always","split":true},{"type":"Punctuation","behavior":"Isolated"}]},"post_processor":{"type":"TemplateProcessing","single":[{"SpecialToken":{"id":"<s>","type_id":0}},{"Sequence":{"id":"A","type_id":0}},{"SpecialToken":{"id":"</s>","type_id":0}}],"pair":[{"SpecialToken":{"id":"<s>","type_id":0}},{"Sequence":{"id":"A","type_id":0}},{"SpecialToken":{"id":"</s>","type_id":0}},{"Sequence":{"id":"B","type_id":0}},{"SpecialToken":{"id":"</s>","type_id":0}}],"special_tokens":{"</s>":{"id":"</s>","ids":[2],"tokens":["</s>"]},"<s>":{"id":"<s>","ids":[1],"tokens":["<s>"]}}},"decoder":null,"model":{"type":"Unigram","unk_id":3,"vocab":[["<pad>",0.0],["<s>",0.0],["</s>",0.0],["<unk>",0.0],["▁",-1.9880127716078508],["r",-2.712195846503441],["a",-2.7139899467155235],["\n",-2.801830413018706],["e",-3.0865791536130374],["t",-3.130285510572257],["g",-3.167831497251072],["0",-3.5750288540158905],["d",-3.7235610142744413],["1",-3.7880891949756386],["equi",-3.8274455118420327],["_",-3.831563265650038],["red",-3.9151423385936166],["s",-4.013781884110406],["info",-4.032623562374873],["o",-4.060961609812487],["p",-4.086772482219651],["y",-4.289638487877964],["n",-4.2972918698570055],["▁1\n",-4.450433459848469],["ty",-4.509683480730752],["▁text\n",-4.68650243564608],["ool",-4.690731248971167],["l",-4.7132472807477654],["i",-4.775623309182311],["esc",-4.841236914060199],["2",-4.857622690280126],["▁wh",-4.857627629333494],["pe",-4.890445010557731],["enum",-4.897216304849959],["the",-4.941782284530011],["w",-5.002411299378763],["c",-5.0084098507332255],["h",-5.147809373638048],["rg",-5.171977571457811],["▁to",-5.335413440794528],["▁0\n",-5.474428228859496],["ar",-5.48310430308813],["▁of",-5.521979341620716],["▁ar",-5.553020715838038],["m",-5.582866241531786],["k",-5.700013784293465],["▁for",-5.844742535639482],["▁crea",-5.845086944997163],["u",-5.8542915364655395],["▁off",-5.858293763271832],["▁reminde",-5.8735984535419705],["▁duration\n",-5.87883831003111],["▁timer\n",-5.885395273706352],["▁integer",-5.890051844990504],["▁event\n",-5.8983462871105665],["man",-5.922006119440947],["▁place",-5.92471210777267],["igh",-6.121205633700068],["▁ho",-6.167358022885571],["3",-6.191756744047271],["▁timer",-6.245976720914565],["▁th",-6.255779294561596],["1\n",-6.328341224920207],["▁enum",-6.361173332444398],["ich",-6.375010869112202],["des",-6.469218384372614],["▁duration",-6.469870648277021],["▁cou",-6.473137955219409],["▁event",-6.493782240128544],["▁cal",-6.504710147758761],["enda",-6.524975529432533],["▁start",-6.525929559339958],["emai",-6.532794057140119],["itch",-6.533838225577592],["▁title\n",-6.541220385021735],["▁length",-6.548666916522721],["▁datetime",-6.549366488117486],["▁repeat",-6.560105637696748],["run",-6.571514866372303],["▁days",-6.57825985527547],["▁room\n",-6.59235558257131],["▁boolean",-6.6031564577931],["nti",-6.605714220874073],["▁location",-6.6114296352671],["▁about",-6.622375619385866],["▁lo",-6.626887798598324],["▁be",-6.636177632999638],["ema",-6.646619307378786],["▁che",-6.650737687188917],["▁low",-6.663472136770507],["▁rec",-6.667729450097237],["▁un",-6.688530813646571],["▁date",-6.689904510321022],["mes",-6.71847807834415],["f",-6.735837670678802],["▁tod",-6.739112835781899],["lon",-6.744167924237631],["lin",-6.784389602681137],["0\n",-6.809311078542386],["ck",-6.818147823904908],["2\n",-6.825723914909986],["b",-6.827658640897964],["▁it",-6.876160603179487],["orm",-6.911558446112098],["!",-6.984552135520736],["tas",-7.0355577867693535],["▁eine",-7.045540708309345],["ead",-7.045564229366712],["-",-7.0647182439934255],["end",-7.0797224235971825],["ist",-7.102822470888882],["on\n",-7.114138745591536],["▁on",-7.119555631256775],[":",-7.13796221746386],["▁a",-7.15145588958841],["z",-7.1563927263053575],["iv",-7.167138070553986],["▁is",-7.410783605236276],[".",-7.437807367670716],["lig",-7.465873702509776],["her",-7.4897923327938525],["▁we",-7.514343121125426],["ow",-7.538792967362177],["bo",-7.5395315207053315],["ic",-7.54958406149792],["▁0",-7.601042190923131],["▁so",-7.626635311849417],["▁li",-7.639481605579328],["v",-7.662800213011718],["sen",-7.665017124183507],["stell",-7.709987226148437],["▁1",-7.740387033558085],["me",-7.744139447717991],["é",-7.784968059440522],["▁3",-7.800347346450533],["ä",-7.875245513876082],["'",-7.889791160760671],["▁de",-7.908193513277168],["▁plan",-7.910130019340538],["▁an",-7.937816912892936],["he",-7.981502647838065],["▁2",-8.039283189710016],["che",-8.047498027336625],["un",-8.050199559429151],["▁t",-8.06644374644277],["mai",-8.072064773937285],["▁env",-8.07386125649921],["▁do",-8.084082257311731],["▁temp",-8.101578264866745],["es",-8.108320619804125],["à",-8.137969352957509],["▁minute",-8.16852023375585],["age",-8.185190132747898],["▁auf",-8.20464642212726],["ve",-8.220945037257259],["▁sch",-8.264362685884159],["▁bu",-8.308749470958752],["ü",-8.345354940168928],["in",-8.347510331167662],["aña",-8.351397042090495],["ía",-8.379470909076897],["up",-8.406759460568525],["▁qu",-8.411319715358694],["▁dentist",-8.435816654336334],["▁tom",-8.45178702424888],["lum",-8.470970564588999],["re",-8.473796745619957],["▁co",-8.477807253748715],["▁pro",-8.498675120860014],["schick",-8.50912960999072],["▁die",-8.531183975008553],["?",-8.536412411851863],["on",-8.547320054594886],["è",-8.564782633179831],["ó",-8.579275386802843],["▁plant",-8.607638824801253],["iz",-8.614687963340018],["qui",-8.625633124577352],["▁pass",-8.625876116112062],["▁wie",-8.63364350186926],["▁l",-8.65783417560854],["▁me",-8.667128744369379],["▁mü",-8.670941009366542],["▁la",-8.694814876534869],["▁na",-8.704732266091828],["▁den",-8.708439360327795],["it",-8.710824386901287],["text\n",-8.711943660345852],["minutes",-8.71465733367165],["9",-8.723282708875763],["▁pres",-8.761181866679358],["za",-8.769056963843468],["gabe",-8.770811623584239],["ma",-8.785698138784777],["▁rapp",-8.799423724000782],["ine",-8.826002941246468],[",",-8.84528972583474],["▁ver",-8.860133694372054],["to",-8.876453574708492],["rende",-8.887962945103329],["▁com",-8.893853381079312],["ed",-8.906150021085],["current",-8.909622847183156],["ré",-8.91245420239128],["ber",-8.92457121024614],["st",-8.940881822377602],["ch",-8.953047913790533],["▁ein",-8.95713212489741],["jou",-8.95721905524449],["▁w",-8.967078107488149],["▁prepar",-8.983798143136166],["▁hace",-8.984652508969774],["▁lu",-8.995243772023214],["▁prochain",-9.00603515261446],["▁proje",-9.008229697291602],["empo",-9.020637686970883],["th",-9.026489675763637],["â",-9.033335055930362],["5",-9.033335055930362],["tter",-9.060356688158656],["▁stunde",-9.073460761634298],["▁se",-9.075215294085245],["as",-9.092116564101806],["▁minut",-9.093460501812629],["á",-9.104790637595812],["lle",-9.110096030470139],["wh",-9.11338524918503],["▁wi",-9.116685582822912],["nt",-9.126620881919276],["is",-9.1427321743208],["▁dan",-9.15320892597529],["▁priorit",-9.17179312403554],["▁mach",-9.172464860999733],["▁dem",-9.18270829886169],["uj",-9.19216072385538],["ür",-9.205553189524043],["▁s",-9.21363011656364],["merci",-9.21580454468583],["▁cit",-9.261964492579953],["▁mor",-9.26772381834381],["an",-9.27218607031722],["ori",-9.283745471376458],["auf",-9.292473293260409],["rec",-9.313010955571475],["▁in",-9.333882347344353],["ext",-9.349489363681005],["at",-9.355607782123402],["▁ma",-9.358011278210308],["qu",-9.361278162122836],["be",-9.383025617705187],["ende",-9.402567073031575],["sc",-9.415007124217706],["▁ven",-9.429223237306042],["▁priority",-9.431078917643674],["jour",-9.439953237464294],["▁ré",-9.444818268277187],["al",-9.469674136853095],["▁team",-9.471022820918266],["▁all",-9.477392565364275],["mit",-9.477472618389536],["▁priori",-9.48119207653351],["▁par",-9.48191832704644],["de",-9.49132548293631],["halb",-9.498600521999252],["se",-9.501992397322356],["wit",-9.525431130198124],["▁no",-9.52925379708707],["▁revi",-9.529623146220258],["hamb",-9.530093326931008],["x",-9.536912289339174],["▁sal",-9.562083476816595],["enta",-9.582296029879469],["for",-9.5847076695364],["▁quart",-9.623198796666392],["▁próximo",-9.62355479234287],["▁dura",-9.639992224069921],["por",-9.649251872937574],["▁hour",-9.664929197734246],["am",-9.674677453242818],["ant",-9.67598847742789],["pare",-9.696172803640643],["í",-9.699207261256042],["do",-9.705681504850943],["▁trimestr",-9.70876271188308],["mmer",-9.710226810219108],["quip",-9.718336045275759],["▁heu",-9.732348158617182],["min",-9.74125229610302],["appo",-9.744676950130026],["▁da",-9.748725489394056],["om",-9.768197556450078],["or",-9.772892874058865],["ti",-9.775876205717086],["ß",-9.785594019388506],["une",-9.801432102764704],["of",-9.805196151429403],["▁rev",-9.806004357565838],["room",-9.81249829499172],["▁dreh",-9.818274965768664],["para",-9.843979599516764],["duration\n",-9.846710677032984],["en",-9.849316439447996],["▁mon",-9.867197345345195],["reminde",-9.870218619866378],["ho",-9.878662775935487],["▁h",-9.879610814231595],["integer",-9.887189354587232],["▁text",-9.901268449559844],["timer\n",-9.903723727778038],["ad",-9.908433131989666],["▁d",-9.90863626509112],["uni",-9.909670232507338],["event\n",-9.91714879160716],["▁due",-9.919323613859179],["eat",-9.923138366434534],["crea",-9.93363202733282],["our",-9.94052442714905],["▁lun",-9.963973806651808],["place",-9.973281595306908],["▁ber",-9.986500700335093],["s\n",-9.989556826391492],["▁or",-9.995000005358374],["eb",-10.001275110883057],["off",-10.014208988281759],["ec",-10.059262015474193],["num",-10.06339226714],["▁b",-10.064720755799346],["team",-10.150695079474733],["li",-10.158485453496896],["▁po",-10.162152568136392],["ol",-10.17267508074292],["ram",-10.187032852900973],["▁tar",-10.197348058337779],["te",-10.199179817778493],["¿",-10.28012299832159],["▁le",-10.286446882466937],["timer",-10.306970174036021],["heu",-10.324050137260079],["rida",-10.326681643391897],["▁i",-10.344625547723792],["/",-10.363456331655026],["ration",-10.36809104252441],["▁integ",-10.368241966133326],["bes",-10.369328700646534],["▁di",-10.371294564565012],["▁au",-10.374007638260451],["▁even",-10.386242237121035],["evi",-10.390871013900632],["▁hal",-10.39656756031822],["▁ta",-10.43752119979595],["▁room",-10.459199946373218],["duration",-10.47388294134564],["ire",-10.503966835008878],["vent",-10.513163138283002],["ill",-10.525175330425942],["lo",-10.528171481413464],["19",-10.534859153589837],["out",-10.553658910796266],["datetime",-10.558255727707934],["event",-10.56793558704168],["ste",-10.572250551768796],["abe",-10.58487227282317],["title\n",-10.588233099423945],["length",-10.596092578890197],["start",-10.601972663882266],["repeat",-10.608279045785551],["location",-10.624064471112336],["▁mi",-10.6268761835203],["boolean",-10.63201737701778],["ng",-10.648128994855384],["na",-10.648457208013946],["cou",-10.660440073314737],["ö",-10.665476533678742],["room\n",-10.673154580358828],["ient",-10.677288793450105],["rio",-10.68145288753573],["cal",-10.6942087430543],["days",-10.701199537595897],["nz",-10.701262666319803],["about",-10.70459001790881],["vie",-10.715682494547924],["est",-10.751600899293171],["com",-10.753844859994206],["ca",-10.756618321724615],["▁ba",-10.760004043878585],["▁ren",-10.780605870848092],["8",-10.79047653368785],["6",-10.79047653368785],["trie",-10.80340796155885],["date",-10.822006644006416],["▁m",-10.832710590222481],["j",-10.847309035816908],["cor",-10.85612200238997],["low",-10.863316237379742],["ank",-10.864462449496253],["dy",-10.923003795736612],["este",-10.938804800198374],["atin",-10.949252306496392],["oo",-10.955070348371358],["tod",-10.959204902057923],["dem",-10.988237651676052],["ein",-11.029303270097552],["▁comm",-11.048574076779229],["▁ha",-11.060512738654268],["aj",-11.068242206708952],["nd",-11.130199146372254],["dat",-11.137916158008693],["lan",-11.140898477424017],["day",-11.183040896664425],["em",-11.212769165204177],["eine",-11.213329832088574],["aci",-11.229364030406183],["nda",-11.240118436606014],["dia",-11.246696100149443],["dor",-11.256515889465005],["la",-11.286900516644236],["tag",-11.29203975735964],["▁re",-11.339814075302009],["▁f",-11.379524989678524],["er",-11.399411395667617],["fo",-11.410278391235408],["ha",-11.44559645172023],["so",-11.470061315411495],["um",-11.477970440142592],["mi",-11.485459559826591],["▁ch",-11.491544557300971],["ject",-11.509933656142435],["▁rep",-11.535457391998133],["+",-11.55000034325162],["@",-11.55000034325162],["▁o",-11.562171558753425],["tin",-11.595980201986666],["il",-11.6033560304861],["ea",-11.625787491895123],["y\n",-11.640115169656687],["nfo",-11.657419657563555],["le",-11.699197987892626],["ate\n",-11.72896324998271],["▁u",-11.761120584404413],["ent",-11.772919896554706],["gra",-11.787014225109026],["▁fr",-11.811217657593978],["▁en",-11.82789876183066],["▁du",-11.839933867236107],["ht",-11.876716020726558],["ur",-11.885804134424237],["ss",-11.900826870499257],["eri",-11.903545992193488],["ze",-11.9724147186269],["roc",-11.978361300650299],["▁n",-11.980669037160244],["je",-11.99623145971908],["ui",-11.996670486378383],["par",-12.023074453855042],["ci",-12.029870602774588],["po",-12.029972725720793],["ge",-12.032400924323593],["mor",-12.033830300506487],["▁c",-12.036514231921013],["sa",-12.08211711142825],["minute",-12.086128540672455],["int",-12.092834817607107],["we",-12.12816674888937],["▁p",-12.129974798400054],["ord",-12.206710166513483],["rid",-12.221565270607506],["plan",-12.236836695035882],["ale",-12.237589718920274],["dri",-12.248769818163261],["ou",-12.25068449289167],["▁tha",-12.251693425635013],["ours",-12.254377967758304],["ach",-12.275323287243836],["da",-12.285225653724138],["▁pr",-12.32958416624745],["el",-12.329785940425065],["alt",-12.342001270772823],["vo",-12.381410297711303],["isi",-12.420059633035898],["ll",-12.429667591941884],["ies",-12.445342559852127],["ag",-12.460658187547613],["temp",-12.490962862145238],["l\n",-12.513978932764308],["elle",-12.514561754605088],["bu",-12.526835736940718],["sch",-12.549127923163844],["env",-12.549573084126191],["t\n",-12.558261174953127],["q",-12.57397965774654],["ute",-12.605523076205008],["ah",-12.61519571316381],["▁cr",-12.616702678632148],["▁su",-12.626372998583669],["ns",-12.656209132958418],["ven",-12.72769703642347],["▁al",-12.770621223566073],["nde",-12.773855885769308],["▁wa",-12.787443000252885],["co",-12.790419913385147],["im",-12.813012315829228],["e\n",-12.817167852427566],["ate",-12.821259231223866],["dentist",-12.834779705259608],["vi",-12.853963929271236],["hic",-12.85792350318553],["▁wo",-12.874084396094979],["ger",-12.93751793802315],["ern",-12.94121196016501],["cia",-12.955699738691068],["ita",-12.958780718298039],["wi",-12.975555930500128],["arc",-12.976580139698154],["dan",-12.997493989490465],["gh",-13.036986620425493],["▁ab",-13.057813925029564],["esen",-13.077135510854834],["od",-13.148768256474174],["ion",-13.161567156278117],["ta",-13.163892936345395],["tom",-13.170415790423307],["plant",-13.17586042697773],["pro",-13.197859481688655],["den",-13.218312327213695],["ei",-13.229750639830272],["erci",-13.251827256931765],["pass",-13.279438780860662],["▁ti",-13.281104282420019],["ri",-13.325086609796216],["uel",-13.330892943224729],["▁z",-13.340790163529697],["die",-13.369283383128957],["rmi",-13.373192027574097],["gar",-13.403356914454713],["ie",-13.424661688044866],["du",-13.462356669407306],["wie",-13.479117512019904],["ex",-13.5156800948754],["pres",-13.52720474822749],["rm",-13.543214655002465],["ter",-13.5734437925322],["rapp",-13.59065144046442],["ser",-13.595896682263474],["minut",-13.60717774561316],["all",-13.677578462762446],["eur",-13.69451318430571],["mü",-13.705829167717242],["ect",-13.735578012575248],["prochain",-13.780261955507461],["nte",-13.785413429599249],["prepar",-13.809630716760994],["ne",-13.810881685617733],["orr",-13.828381883026942],["▁sta",-13.898046231731515],["ver",-13.905908684160075],["proje",-13.918114640115745],["lu",-13.929681574883917],["hace",-13.960690879399761],["ass",-13.992361458016223],["stunde",-13.995585155793158],["▁ve",-14.00107939327918],["hi",-14.066975019910151],["priorit",-14.17282780336913],["▁ap",-14.235063624851938],["rea",-14.305973982966211],["di",-14.336388925432399],["mach",-14.383055087358484],["ig",-14.457103731495783],["et",-14.520023281354096],["▁mo",-14.556545230866952],["ity\n",-14.563462616659914],["ñ",-14.701905897985487],["rro",-14.701905897985487]],"byte_fallback":false}}